000000007FFF0000
0000000000000000
0000000000000000
0000000000000000
00000000000095DB
7948000000000000
0000969400000000
811D000000000000
000000007FFF0000
0000000000000000
0000000000000000
000000007FFF0000
000096C900000000
0000000000000000
00007FFF00000000
00000000964A9158
00007FFF00000000
7FFF000000000000
7FFF800183180000
00007FFF00008001
00007FFF93FC786D
0000000000000000
000000007FFF0000
0000975E00000000
0000000000000000
7438000000000000
000000007FFF7D9B
0000000080010000
7FFF000000000000
000000007FFF0000
7FFF775E00000000
00007FFF00000000
0000000000008001
00007FFF7FFF7FFF
0000000000000000
7FFF000000000000
7FFF00007FFF0000
00006BD480010000
0000000000000000
00000000000091CD
0000936675200000
0000000000000000
0000000000008001
915E000000000000
0000000000000000
0000000000007FFF
000000007FFF0000
0000000000000000
00000000000074F5
8D80000094B70000
6CB2800100008001
7FFF000000000000
0000000000000000
0000826B00000000
0000000000000000
0000000000000000
0000000000000000
00006F2E00007FFF
000000007FFF7FFF
0000000000000000
90B5000000000000
0000000000000000
0000000000000000
0000000000007FFF
0000000000000000
00007FFF7FFF0000
8001000000000000
7FFF000000007FFF
000093CF00006D3B
0000000000000000
0000800100000000
000000007FFF9413
0000000000007FFF
0000000000000000
80017FFF00007B00
7FFF7A787FFF0000
0000000000000000
0000000000000000
000000007FFF0000
7FFF000069990000
0000000000000000
0000740C00000000
0000000000007FFF
00000000000076A3
680E000075810000
80017FFF00000000
00007FFF00000000
0000000097E00000
0000000000007FFF
7C75000000000000
0000739E00000000
7FFF000096BA0000
0000000000000000
8001000000000000
7B30000000000000
0000000000000000
0000000000006F25
7FFF000000000000
0000000000000000
0000000000000000

