5DF8
5823
0000
615B
0000
56B9
0000
BC76
0000
0000
0000
0000
0000
0000
540C
0000
0000
4E40
AF73
A81F
0000
0000
0000
0000
AE36
0000
0000
0000
0000
0000
0000
0000
AB45
0000
0000
0000
0000
0000
0000
0000
0000
5939
0000
0000
0000
0000
0000
0000
0000
0000

