0009FEFA
05F9FBF5
3BFBF80A
3508030C
060500F6
0104FA09
35F709FA
3C04FDFF
39FDFDFB
05FDF900
380509F8
3E060603
0EFC0907
05F5FDF6
35FAF509
09FAFB01
08F90B02
0C00FCF8
0301F806
37F90208
0BF9F90F
090101FE
01FB0FF7
37FCFB0A
050BFCF5
06FDF6FB
0A02060E
09060B06
370CFA05
38FC04FF
3CFFFE0E
39F70800
3BF7FD00
3E02F509
36060AF9
09F70304
3BF5F6FC
3907F9FB
10FF0DFF
3D0604F8
39FBF7F7
3CF505F9
3AF7FB07
35F9FF07
04F20A05
390AFD09
0C0DF40C
080D080A
36060F0D
050EFA08
0D0AF60F
3B03FF02
3900F8F7
020B07F5
3305FBFA
0908FBF8
0107FA0A
03FDF9FB
0BFB080D
03F60007
080E0D00
04FC00F9
3B08FA0B
0004FF00
060A0DFE
01020AFB
0AFE0DFD
0C0504FB
3908FFF7
0102FDF7
0CF5F8FC
05080407
0D020304
030504F6
000B0F06
3A0E0504
010EF60B
03FC070B
06FC01F9
09F807F7
00F7F707
0A04F902
08FFF9F5
0FF5FD0A
3BF903F5
3CFFF8FD
0708F500
370A0708
0E0B040E
0A0AF904
3507F6FA
3B0006FA
0DF8FC0A
0300F9FE
0E020802
3EFA0D06
35F70308
07FD04FA
3A0DF90D
040102FE

